TRT-101600-MinMaxCalibration
images: 3c010204
/model.0/conv/Conv_output_0: 3f335a8f
/model.0/act/Sigmoid_output_0: 3c010204
/model.0/act/Mul_output_0: 3f1e4f41
/model.1/conv/Conv_output_0: 3f378090
/model.1/act/Sigmoid_output_0: 3c010204
/model.1/act/Mul_output_0: 3f378090
/model.2/cv1/conv/Conv_output_0: 3f050f65
/model.2/cv1/act/Sigmoid_output_0: 3c010204
/model.2/cv1/act/Mul_output_0: 3e8054f2
/model.2/Split_output_0: 3e8054f2
/model.2/Split_output_1: 3dcc5a65
/model.2/m.0/cv1/conv/Conv_output_0: 3d7a504d
/model.2/m.0/cv1/act/Sigmoid_output_0: 3c00d099
/model.2/m.0/cv1/act/Mul_output_0: 3d516d77
/model.2/m.0/cv2/conv/Conv_output_0: 3e10ae77
/model.2/m.0/cv2/act/Sigmoid_output_0: 3c010204
/model.2/m.0/cv2/act/Mul_output_0: 3e10ae77
/model.2/m.0/Add_output_0: 3e25817c
/model.2/Concat_output_0: 3e8054f2
/model.2/cv2/conv/Conv_output_0: 3e0c37e8
/model.2/cv2/act/Sigmoid_output_0: 3c010089
/model.2/cv2/act/Mul_output_0: 3da16ba0
/model.3/conv/Conv_output_0: 3d9e2346
/model.3/act/Sigmoid_output_0: 3c010035
/model.3/act/Mul_output_0: 3d9e210e
/model.4/cv1/conv/Conv_output_0: 3d8db4e6
/model.4/cv1/act/Sigmoid_output_0: 3c00d7c5
/model.4/cv1/act/Mul_output_0: 3d568778
/model.4/Split_output_0: 3d416e07
/model.4/Split_output_1: 3d568778
/model.4/m.0/cv1/conv/Conv_output_0: 3d56ef63
/model.4/m.0/cv1/act/Sigmoid_output_0: 3c00d7f1
/model.4/m.0/cv1/act/Mul_output_0: 3d56a94a
/model.4/m.0/cv2/conv/Conv_output_0: 3da01ab7
/model.4/m.0/cv2/act/Sigmoid_output_0: 3c00f50c
/model.4/m.0/cv2/act/Mul_output_0: 3d7cd4c1
/model.4/m.0/Add_output_0: 3d8c7f9b
/model.4/Concat_output_0: 3d8c7f9b
/model.4/cv2/conv/Conv_output_0: 3d94951b
/model.4/cv2/act/Sigmoid_output_0: 3c00f978
/model.4/cv2/act/Mul_output_0: 3d853715
/model.5/conv/Conv_output_0: 3dd5f045
/model.5/act/Sigmoid_output_0: 3c00f8cb
/model.5/act/Mul_output_0: 3d83fb6c
/model.6/cv1/conv/Conv_output_0: 3dbdb429
/model.6/cv1/act/Sigmoid_output_0: 3c00f7ae
/model.6/cv1/act/Mul_output_0: 3d821643
/model.6/Split_output_0: 3d787cfc
/model.6/Split_output_1: 3d821643
/model.6/m.0/cv1/conv/Conv_output_0: 3d49014a
/model.6/m.0/cv2/conv/Conv_output_0: 3dc9ce56
/model.6/m.0/cv1/act/Sigmoid_output_0: 3c00c141
/model.6/m.0/cv2/act/Sigmoid_output_0: 3c01018b
/model.6/m.0/cv1/act/Mul_output_0: 3d489c62
/model.6/m.0/cv2/act/Mul_output_0: 3db40401
/model.6/m.0/m/m.0/cv1/conv/Conv_output_0: 3d6325fc
/model.6/m.0/m/m.0/cv1/act/Sigmoid_output_0: 3c00bd00
/model.6/m.0/m/m.0/cv1/act/Mul_output_0: 3d468864
/model.6/m.0/m/m.0/cv2/conv/Conv_output_0: 3d76e490
/model.6/m.0/m/m.0/cv2/act/Sigmoid_output_0: 3c00e162
/model.6/m.0/m/m.0/cv2/act/Mul_output_0: 3d5eeb07
/model.6/m.0/m/m.0/Add_output_0: 3d6f8bf6
/model.6/m.0/m/m.1/cv1/conv/Conv_output_0: 3d818e5b
/model.6/m.0/m/m.1/cv1/act/Sigmoid_output_0: 3c00a876
/model.6/m.0/m/m.1/cv1/act/Mul_output_0: 3d3e025f
/model.6/m.0/m/m.1/cv2/conv/Conv_output_0: 3dbc929f
/model.6/m.0/m/m.1/cv2/act/Sigmoid_output_0: 3c010195
/model.6/m.0/m/m.1/cv2/act/Mul_output_0: 3db555e4
/model.6/m.0/m/m.1/Add_output_0: 3ddac0ba
/model.6/m.0/Concat_output_0: 3ddac0ba
/model.6/m.0/cv3/conv/Conv_output_0: 3da62236
/model.6/m.0/cv3/act/Sigmoid_output_0: 3c00fd13
/model.6/m.0/cv3/act/Mul_output_0: 3d8de5f1
/model.6/Concat_output_0: 3d8de5f1
/model.6/cv2/conv/Conv_output_0: 3d993531
/model.6/cv2/act/Sigmoid_output_0: 3c00ff8c
/model.6/cv2/act/Mul_output_0: 3d993243
/model.7/conv/Conv_output_0: 3d88be6e
/model.7/act/Sigmoid_output_0: 3c00f261
/model.7/act/Mul_output_0: 3d76c3f5
/model.8/cv1/conv/Conv_output_0: 3daf2882
/model.8/cv1/act/Sigmoid_output_0: 3c010163
/model.8/cv1/act/Mul_output_0: 3daf27a7
/model.8/Split_output_0: 3daf27a7
/model.8/Split_output_1: 3d7b5f6c
/model.8/m.0/cv1/conv/Conv_output_0: 3dbe7683
/model.8/m.0/cv2/conv/Conv_output_0: 3dbbaa35
/model.8/m.0/cv1/act/Sigmoid_output_0: 3c0101c6
/model.8/m.0/cv2/act/Sigmoid_output_0: 3c00fe7e
/model.8/m.0/cv1/act/Mul_output_0: 3dbe7626
/model.8/m.0/cv2/act/Mul_output_0: 3d9383ee
/model.8/m.0/m/m.0/cv1/conv/Conv_output_0: 3db3d138
/model.8/m.0/m/m.0/cv1/act/Sigmoid_output_0: 3c01018a
/model.8/m.0/m/m.0/cv1/act/Mul_output_0: 3db3d08e
/model.8/m.0/m/m.0/cv2/conv/Conv_output_0: 3daa0a12
/model.8/m.0/m/m.0/cv2/act/Sigmoid_output_0: 3c00fc0e
/model.8/m.0/m/m.0/cv2/act/Mul_output_0: 3d8ae5dc
/model.8/m.0/m/m.0/Add_output_0: 3dbcf716
/model.8/m.0/m/m.1/cv1/conv/Conv_output_0: 3d97f0a0
/model.8/m.0/m/m.1/cv1/act/Sigmoid_output_0: 3c00fd38
/model.8/m.0/m/m.1/cv1/act/Mul_output_0: 3d8e640b
/model.8/m.0/m/m.1/cv2/conv/Conv_output_0: 3de0d745
/model.8/m.0/m/m.1/cv2/act/Sigmoid_output_0: 3c0101fc
/model.8/m.0/m/m.1/cv2/act/Mul_output_0: 3de0d737
/model.8/m.0/m/m.1/Add_output_0: 3e0c7a28
/model.8/m.0/Concat_output_0: 3e0c7a28
/model.8/m.0/cv3/conv/Conv_output_0: 3d9ab357
/model.8/m.0/cv3/act/Sigmoid_output_0: 3c00ffc6
/model.8/m.0/cv3/act/Mul_output_0: 3d9ab0a6
/model.8/Concat_output_0: 3daf27a7
/model.8/cv2/conv/Conv_output_0: 3db86ab1
/model.8/cv2/act/Sigmoid_output_0: 3c0101a8
/model.8/cv2/act/Mul_output_0: 3db86a2e
/model.9/cv1/conv/Conv_output_0: 3d8b8fd0
/model.9/m/MaxPool_output_0: 3d8b8fd0
/model.9/m_1/MaxPool_output_0: 3d8b8fd0
/model.9/m_2/MaxPool_output_0: 3d8b8fd0
/model.9/Concat_output_0: 3d8b8fd0
/model.9/cv2/conv/Conv_output_0: 3d893ca1
/model.9/cv2/act/Sigmoid_output_0: 3c00d633
/model.9/cv2/act/Mul_output_0: 3d555886
/model.9/Add_output_0: 3df5e67e
/model.10/cv1/conv/Conv_output_0: 3de5ebce
/model.10/cv1/act/Sigmoid_output_0: 3c0101ff
/model.10/cv1/act/Mul_output_0: 3de5ebc5
/model.10/Split_output_0: 3da5085d
/model.10/Split_output_1: 3de5ebc5
/model.10/m/m.0/attn/qkv/conv/Conv_output_0: 3dd6ce94
/model.10/m/m.0/attn/Reshape_output_0: 3dd6ce94
/model.10/m/m.0/attn/Split_output_0: 3d660826
/model.10/m/m.0/attn/Split_output_1: 3da40177
/model.10/m/m.0/attn/Split_output_2: 3dd6ce94
/model.10/m/m.0/attn/Transpose_output_0: 3d660826
/model.10/m/m.0/attn/Reshape_2_output_0: 3dd6ce94
/model.10/m/m.0/attn/MatMul_output_0: 3f8c944d
/model.10/m/m.0/attn/pe/conv/Conv_output_0: 3de9ed86
/model.10/m/m.0/attn/Constant_1_output_0_output: 3ab671d7
ONNXTRT_Broadcast_output: 3ab671d7
/model.10/m/m.0/attn/Mul_output_0: 3e46cf24
/model.10/m/m.0/attn/Softmax_output: 3bb97c8c
/model.10/m/m.0/attn/Softmax_output_0: 3bb97c8c
/model.10/m/m.0/attn/Transpose_1_output_0: 3bb97c8c
/model.10/m/m.0/attn/MatMul_1_output_0: 3d829173
/model.10/m/m.0/attn/Reshape_1_output_0: 3d829173
/model.10/m/m.0/attn/Add_output_0: 3dfb5115
/model.10/m/m.0/attn/proj/conv/Conv_output_0: 3d8d3457
/model.10/m/m.0/Add_output_0: 3e100cbe
/model.10/m/m.0/ffn/ffn.0/conv/Conv_output_0: 3e00e5f6
/model.10/m/m.0/ffn/ffn.0/act/Sigmoid_output_0: 3c010203
/model.10/m/m.0/ffn/ffn.0/act/Mul_output_0: 3e00e5f5
/model.10/m/m.0/ffn/ffn.1/conv/Conv_output_0: 3e4f218d
/model.10/m/m.0/Add_1_output_0: 3e517b5a
/model.10/Concat_output_0: 3e517b5a
/model.10/cv2/conv/Conv_output_0: 3ebf731d
/model.10/cv2/act/Sigmoid_output_0: 3c010204
/model.10/cv2/act/Mul_output_0: 3ebf731d
/model.11/Resize_output_0: 3ebf731d
/model.12/Concat_output_0: 3ebf731d
/model.13/cv1/conv/Conv_output_0: 3e62aca2
/model.13/cv1/act/Sigmoid_output_0: 3c010204
/model.13/cv1/act/Mul_output_0: 3e62aca2
/model.13/Split_output_0: 3dcb1dbb
/model.13/Split_output_1: 3e62aca2
/model.13/m.0/cv1/conv/Conv_output_0: 3d5ae7e0
/model.13/m.0/cv2/conv/Conv_output_0: 3e0b9828
/model.13/m.0/cv1/act/Sigmoid_output_0: 3c0070be
/model.13/m.0/cv2/act/Sigmoid_output_0: 3c010010
/model.13/m.0/cv1/act/Mul_output_0: 3d2e1984
/model.13/m.0/cv2/act/Mul_output_0: 3d9cdb5a
/model.13/m.0/m/m.0/cv1/conv/Conv_output_0: 3daf8513
/model.13/m.0/m/m.0/cv1/act/Sigmoid_output_0: 3c00a1d7
/model.13/m.0/m/m.0/cv1/act/Mul_output_0: 3d3bacce
/model.13/m.0/m/m.0/cv2/conv/Conv_output_0: 3d755169
/model.13/m.0/m/m.0/cv2/act/Sigmoid_output_0: 3c00e7e4
/model.13/m.0/m/m.0/cv2/act/Mul_output_0: 3d662406
/model.13/m.0/m/m.0/Add_output_0: 3d6950b3
/model.13/m.0/m/m.1/cv1/conv/Conv_output_0: 3d8155ea
/model.13/m.0/m/m.1/cv1/act/Sigmoid_output_0: 3c008d99
/model.13/m.0/m/m.1/cv1/act/Mul_output_0: 3d3565cb
/model.13/m.0/m/m.1/cv2/conv/Conv_output_0: 3db9e40b
/model.13/m.0/m/m.1/cv2/act/Sigmoid_output_0: 3c0101b0
/model.13/m.0/m/m.1/cv2/act/Mul_output_0: 3db9e392
/model.13/m.0/m/m.1/Add_output_0: 3dd2c496
/model.13/m.0/Concat_output_0: 3dd2c496
/model.13/m.0/cv3/conv/Conv_output_0: 3d7ab749
/model.13/m.0/cv3/act/Sigmoid_output_0: 3c00f421
/model.13/m.0/cv3/act/Mul_output_0: 3d7a9c4c
/model.13/Concat_output_0: 3e62aca2
/model.13/cv2/conv/Conv_output_0: 3dc8652e
/model.13/cv2/act/Sigmoid_output_0: 3c0101e2
/model.13/cv2/act/Mul_output_0: 3dc864fa
/model.14/Resize_output_0: 3dc864fa
/model.15/Concat_output_0: 3dc864fa
/model.16/cv1/conv/Conv_output_0: 3d708d20
/model.16/cv1/act/Sigmoid_output_0: 3c00ea52
/model.16/cv1/act/Mul_output_0: 3d694dfb
/model.16/Split_output_0: 3d401a76
/model.16/Split_output_1: 3d694dfb
/model.16/m.0/cv1/conv/Conv_output_0: 3d1d8f4e
/model.16/m.0/cv2/conv/Conv_output_0: 3dbba30c
/model.16/m.0/cv1/act/Sigmoid_output_0: 3bff80ed
/model.16/m.0/cv2/act/Sigmoid_output_0: 3c00ff42
/model.16/m.0/cv1/act/Mul_output_0: 3d139ee1
/model.16/m.0/cv2/act/Mul_output_0: 3d976fab
/model.16/m.0/m/m.0/cv1/conv/Conv_output_0: 3dc72527
/model.16/m.0/m/m.0/cv1/act/Sigmoid_output_0: 3c010158
/model.16/m.0/m/m.0/cv1/act/Mul_output_0: 3dae085b
/model.16/m.0/m/m.0/cv2/conv/Conv_output_0: 3debb7e4
/model.16/m.0/m/m.0/cv2/act/Sigmoid_output_0: 3c00fd7a
/model.16/m.0/m/m.0/cv2/act/Mul_output_0: 3d8f543f
/model.16/m.0/m/m.0/Add_output_0: 3dd2dc0e
/model.16/m.0/m/m.1/cv1/conv/Conv_output_0: 3db70c66
/model.16/m.0/m/m.1/cv1/act/Sigmoid_output_0: 3c00fe15
/model.16/m.0/m/m.1/cv1/act/Mul_output_0: 3d91aaad
/model.16/m.0/m/m.1/cv2/conv/Conv_output_0: 3e917d1c
/model.16/m.0/m/m.1/cv2/act/Sigmoid_output_0: 3c010204
/model.16/m.0/m/m.1/cv2/act/Mul_output_0: 3e917d1c
/model.16/m.0/m/m.1/Add_output_0: 3e91bc41
/model.16/m.0/Concat_output_0: 3e91bc41
/model.16/m.0/cv3/conv/Conv_output_0: 3e8a7636
/model.16/m.0/cv3/act/Sigmoid_output_0: 3c010166
/model.16/m.0/cv3/act/Mul_output_0: 3daf6f17
/model.16/Concat_output_0: 3daf6f17
/model.16/cv2/conv/Conv_output_0: 3e7530f0
/model.16/cv2/act/Sigmoid_output_0: 3c00ea65
/model.16/cv2/act/Mul_output_0: 3d696934
/model.17/conv/Conv_output_0: 3d8adc15
/model.23/one2one_cv2.0/one2one_cv2.0.0/conv/Conv_output_0: 3ec27be6
/model.23/one2one_cv3.0/one2one_cv3.0.0/one2one_cv3.0.0.0/conv/Conv_output_0: 3cf4dbfe
/model.23/one2one_cv4.0/one2one_cv4.0.0/conv/Conv_output_0: 3ce15c1e
/model.17/act/Sigmoid_output_0: 3c00b4be
/model.23/one2one_cv2.0/one2one_cv2.0.0/act/Sigmoid_output_0: 3c010204
/model.23/one2one_cv3.0/one2one_cv3.0.0/one2one_cv3.0.0.0/act/Sigmoid_output_0: 3bfc5908
/model.23/one2one_cv4.0/one2one_cv4.0.0/act/Sigmoid_output_0: 3bf9a02b
/model.17/act/Mul_output_0: 3d42d80e
/model.23/one2one_cv2.0/one2one_cv2.0.0/act/Mul_output_0: 3e3fd29a
/model.23/one2one_cv3.0/one2one_cv3.0.0/one2one_cv3.0.0.0/act/Mul_output_0: 3cef7afb
/model.23/one2one_cv4.0/one2one_cv4.0.0/act/Mul_output_0: 3cd3bcc4
/model.18/Concat_output_0: 3dc864fa
/model.23/one2one_cv2.0/one2one_cv2.0.1/conv/Conv_output_0: 3e79aa8b
/model.23/one2one_cv3.0/one2one_cv3.0.0/one2one_cv3.0.0.1/conv/Conv_output_0: 3d0713ce
/model.23/one2one_cv4.0/one2one_cv4.0.1/conv/Conv_output_0: 3c86c2a6
/model.19/cv1/conv/Conv_output_0: 3eab0146
/model.23/one2one_cv2.0/one2one_cv2.0.1/act/Sigmoid_output_0: 3c0101ba
/model.23/one2one_cv3.0/one2one_cv3.0.0/one2one_cv3.0.0.1/act/Sigmoid_output_0: 3bdcdd32
/model.23/one2one_cv4.0/one2one_cv4.0.1/act/Sigmoid_output_0: 3be2b539
/model.19/cv1/act/Sigmoid_output_0: 3c010204
/model.23/one2one_cv2.0/one2one_cv2.0.1/act/Mul_output_0: 3dbbcf17
/model.23/one2one_cv3.0/one2one_cv3.0.0/one2one_cv3.0.0.1/act/Mul_output_0: 3c44d9c9
/model.23/one2one_cv4.0/one2one_cv4.0.1/act/Mul_output_0: 3c606aa7
/model.19/cv1/act/Mul_output_0: 3eab0146
/model.23/one2one_cv2.0/one2one_cv2.0.2/Conv_output_0: 3d2756c6
/model.23/one2one_cv3.0/one2one_cv3.0.1/one2one_cv3.0.1.0/conv/Conv_output_0: 3caa7c00
/model.23/one2one_cv4_kpts.0/Conv_output_0: 3bd402a0
/model.19/Split_output_0: 3e161d5b
/model.19/Split_output_1: 3eab0146
/model.23/Reshape_output_0: 3d2756c6
/model.23/one2one_cv3.0/one2one_cv3.0.1/one2one_cv3.0.1.0/act/Sigmoid_output_0: 3bf0e0de
/model.23/Reshape_6_output_0: 3bd402a0
/model.19/m.0/cv1/conv/Conv_output_0: 3d9b9e20
/model.19/m.0/cv2/conv/Conv_output_0: 3e8b5184
/model.23/one2one_cv3.0/one2one_cv3.0.1/one2one_cv3.0.1.0/act/Mul_output_0: 3c9f292c
/model.19/m.0/cv1/act/Sigmoid_output_0: 3c00ffe7
/model.19/m.0/cv2/act/Sigmoid_output_0: 3c010204
/model.23/one2one_cv3.0/one2one_cv3.0.1/one2one_cv3.0.1.1/conv/Conv_output_0: 3d807c93
/model.19/m.0/cv1/act/Mul_output_0: 3d9b9b93
/model.19/m.0/cv2/act/Mul_output_0: 3e8b5184
/model.23/one2one_cv3.0/one2one_cv3.0.1/one2one_cv3.0.1.1/act/Sigmoid_output_0: 3c00f694
/model.19/m.0/m/m.0/cv1/conv/Conv_output_0: 3e69ca81
/model.23/one2one_cv3.0/one2one_cv3.0.1/one2one_cv3.0.1.1/act/Mul_output_0: 3d80712e
/model.19/m.0/m/m.0/cv1/act/Sigmoid_output_0: 3c010204
/model.23/one2one_cv3.0/one2one_cv3.0.2/Conv_output_0: 3e39b599
/model.19/m.0/m/m.0/cv1/act/Mul_output_0: 3e69ca81
/model.23/Reshape_3_output_0: 3e39b599
/model.19/m.0/m/m.0/cv2/conv/Conv_output_0: 3e882cb7
/model.19/m.0/m/m.0/cv2/act/Sigmoid_output_0: 3c010204
/model.19/m.0/m/m.0/cv2/act/Mul_output_0: 3e882cb7
/model.19/m.0/m/m.0/Add_output_0: 3ea9c5af
/model.19/m.0/m/m.1/cv1/conv/Conv_output_0: 3f44a6c1
/model.19/m.0/m/m.1/cv1/act/Sigmoid_output_0: 3c010204
/model.19/m.0/m/m.1/cv1/act/Mul_output_0: 3f44a6c1
/model.19/m.0/m/m.1/cv2/conv/Conv_output_0: 3fecade5
/model.19/m.0/m/m.1/cv2/act/Sigmoid_output_0: 3c010204
/model.19/m.0/m/m.1/cv2/act/Mul_output_0: 3fecade5
/model.19/m.0/m/m.1/Add_output_0: 3fec5866
/model.19/m.0/Concat_output_0: 3fec5866
/model.19/m.0/cv3/conv/Conv_output_0: 3ffe380e
/model.19/m.0/cv3/act/Sigmoid_output_0: 3c010204
/model.19/m.0/cv3/act/Mul_output_0: 3feef4d0
/model.19/Concat_output_0: 3feef4d0
/model.19/cv2/conv/Conv_output_0: 401b93d1
/model.19/cv2/act/Sigmoid_output_0: 3c010204
/model.19/cv2/act/Mul_output_0: 3f080838
/model.20/conv/Conv_output_0: 3ec7e86b
/model.23/one2one_cv2.1/one2one_cv2.1.0/conv/Conv_output_0: 3f4eae79
/model.23/one2one_cv3.1/one2one_cv3.1.0/one2one_cv3.1.0.0/conv/Conv_output_0: 3eb55677
/model.23/one2one_cv4.1/one2one_cv4.1.0/conv/Conv_output_0: 3e1da63f
/model.20/act/Sigmoid_output_0: 3c010204
/model.23/one2one_cv2.1/one2one_cv2.1.0/act/Sigmoid_output_0: 3c010204
/model.23/one2one_cv3.1/one2one_cv3.1.0/one2one_cv3.1.0.0/act/Sigmoid_output_0: 3c010204
/model.23/one2one_cv4.1/one2one_cv4.1.0/act/Sigmoid_output_0: 3c010204
/model.20/act/Mul_output_0: 3ec7e86b
/model.23/one2one_cv2.1/one2one_cv2.1.0/act/Mul_output_0: 3f139064
/model.23/one2one_cv3.1/one2one_cv3.1.0/one2one_cv3.1.0.0/act/Mul_output_0: 3ea9057d
/model.23/one2one_cv4.1/one2one_cv4.1.0/act/Mul_output_0: 3e1da63f
/model.21/Concat_output_0: 3ec7e86b
/model.23/one2one_cv2.1/one2one_cv2.1.1/conv/Conv_output_0: 3e983bd2
/model.23/one2one_cv3.1/one2one_cv3.1.0/one2one_cv3.1.0.1/conv/Conv_output_0: 3e581ca0
/model.23/one2one_cv4.1/one2one_cv4.1.1/conv/Conv_output_0: 3df44064
/model.22/cv1/conv/Conv_output_0: 3f05fec1
/model.23/one2one_cv2.1/one2one_cv2.1.1/act/Sigmoid_output_0: 3c0101f9
/model.23/one2one_cv3.1/one2one_cv3.1.0/one2one_cv3.1.0.1/act/Sigmoid_output_0: 3c010204
/model.23/one2one_cv4.1/one2one_cv4.1.1/act/Sigmoid_output_0: 3c010202
/model.22/cv1/act/Sigmoid_output_0: 3c010204
/model.23/one2one_cv2.1/one2one_cv2.1.1/act/Mul_output_0: 3dda0338
/model.23/one2one_cv3.1/one2one_cv3.1.0/one2one_cv3.1.0.1/act/Mul_output_0: 3e581ca0
/model.23/one2one_cv4.1/one2one_cv4.1.1/act/Mul_output_0: 3df4405f
/model.22/cv1/act/Mul_output_0: 3f05fec1
/model.23/one2one_cv2.1/one2one_cv2.1.2/Conv_output_0: 3dbefe51
/model.23/one2one_cv3.1/one2one_cv3.1.1/one2one_cv3.1.1.0/conv/Conv_output_0: 3f23d435
/model.23/one2one_cv4_kpts.1/Conv_output_0: 3d33e656
/model.22/Split_output_0: 3f05fec1
/model.22/Split_output_1: 3eb68693
/model.23/Reshape_1_output_0: 3dbefe51
/model.23/one2one_cv3.1/one2one_cv3.1.1/one2one_cv3.1.1.0/act/Sigmoid_output_0: 3c010204
/model.23/Reshape_7_output_0: 3d33e656
/model.22/m.0/m.0.0/cv1/conv/Conv_output_0: 3e801f4e
/model.23/one2one_cv3.1/one2one_cv3.1.1/one2one_cv3.1.1.0/act/Mul_output_0: 3e6f2729
/model.22/m.0/m.0.0/cv1/act/Sigmoid_output_0: 3c010204
/model.23/one2one_cv3.1/one2one_cv3.1.1/one2one_cv3.1.1.1/conv/Conv_output_0: 3f13414f
/model.22/m.0/m.0.0/cv1/act/Mul_output_0: 3e801f4e
/model.23/one2one_cv3.1/one2one_cv3.1.1/one2one_cv3.1.1.1/act/Sigmoid_output_0: 3c010204
/model.22/m.0/m.0.0/cv2/conv/Conv_output_0: 3e92df62
/model.23/one2one_cv3.1/one2one_cv3.1.1/one2one_cv3.1.1.1/act/Mul_output_0: 3f13414f
/model.22/m.0/m.0.0/cv2/act/Sigmoid_output_0: 3c010204
/model.23/one2one_cv3.1/one2one_cv3.1.2/Conv_output_0: 3e4cc3fc
/model.22/m.0/m.0.0/cv2/act/Mul_output_0: 3e89a3dd
/model.23/Reshape_4_output_0: 3e4cc3fc
/model.22/m.0/m.0.0/Add_output_0: 3eb68681
/model.22/m.0/m.0.1/attn/qkv/conv/Conv_output_0: 3e901210
/model.22/m.0/m.0.1/attn/Reshape_output_0: 3e901210
/model.22/m.0/m.0.1/attn/Split_output_0: 3df534dc
/model.22/m.0/m.0.1/attn/Split_output_1: 3deecae7
/model.22/m.0/m.0.1/attn/Split_output_2: 3e901210
/model.22/m.0/m.0.1/attn/Transpose_output_0: 3df534dc
/model.22/m.0/m.0.1/attn/Reshape_2_output_0: 3e901210
/model.22/m.0/m.0.1/attn/MatMul_output_0: 40bea789
/model.22/m.0/m.0.1/attn/pe/conv/Conv_output_0: 3efa1d07
ONNXTRT_Broadcast_49_output: 3ab671d7
/model.22/m.0/m.0.1/attn/Mul_output_0: 3f86d023
/model.22/m.0/m.0.1/attn/Softmax_output: 3c010204
/model.22/m.0/m.0.1/attn/Softmax_output_0: 3c010204
/model.22/m.0/m.0.1/attn/Transpose_1_output_0: 3c010204
/model.22/m.0/m.0.1/attn/MatMul_1_output_0: 3e80350d
/model.22/m.0/m.0.1/attn/Reshape_1_output_0: 3e80350d
/model.22/m.0/m.0.1/attn/Add_output_0: 3ede781c
/model.22/m.0/m.0.1/attn/proj/conv/Conv_output_0: 3e2bdc62
/model.22/m.0/m.0.1/Add_output_0: 3ee73515
/model.22/m.0/m.0.1/ffn/ffn.0/conv/Conv_output_0: 3f1afbe0
/model.22/m.0/m.0.1/ffn/ffn.0/act/Sigmoid_output_0: 3c010204
/model.22/m.0/m.0.1/ffn/ffn.0/act/Mul_output_0: 3f1afbe0
/model.22/m.0/m.0.1/ffn/ffn.1/conv/Conv_output_0: 3ed2c9d0
/model.22/m.0/m.0.1/Add_1_output_0: 3f1308b9
/model.22/Concat_output_0: 3f1308b9
/model.22/cv2/conv/Conv_output_0: 3f80ba97
/model.22/cv2/act/Sigmoid_output_0: 3c010204
/model.22/cv2/act/Mul_output_0: 3f7428b8
/model.23/one2one_cv2.2/one2one_cv2.2.0/conv/Conv_output_0: 3f4d2392
/model.23/one2one_cv3.2/one2one_cv3.2.0/one2one_cv3.2.0.0/conv/Conv_output_0: 3ef98719
/model.23/one2one_cv4.2/one2one_cv4.2.0/conv/Conv_output_0: 3e840e18
/model.23/one2one_cv2.2/one2one_cv2.2.0/act/Sigmoid_output_0: 3c010204
/model.23/one2one_cv3.2/one2one_cv3.2.0/one2one_cv3.2.0.0/act/Sigmoid_output_0: 3c010204
/model.23/one2one_cv4.2/one2one_cv4.2.0/act/Sigmoid_output_0: 3c010204
/model.23/one2one_cv2.2/one2one_cv2.2.0/act/Mul_output_0: 3f4d2392
/model.23/one2one_cv3.2/one2one_cv3.2.0/one2one_cv3.2.0.0/act/Mul_output_0: 3ef98719
/model.23/one2one_cv4.2/one2one_cv4.2.0/act/Mul_output_0: 3e840e18
/model.23/one2one_cv2.2/one2one_cv2.2.1/conv/Conv_output_0: 3e14453a
/model.23/one2one_cv3.2/one2one_cv3.2.0/one2one_cv3.2.0.1/conv/Conv_output_0: 3e4bbdb2
/model.23/one2one_cv4.2/one2one_cv4.2.1/conv/Conv_output_0: 3e1cd4a6
/model.23/one2one_cv2.2/one2one_cv2.2.1/act/Sigmoid_output_0: 3c00fc53
/model.23/one2one_cv3.2/one2one_cv3.2.0/one2one_cv3.2.0.1/act/Sigmoid_output_0: 3c010204
/model.23/one2one_cv4.2/one2one_cv4.2.1/act/Sigmoid_output_0: 3c010204
/model.23/one2one_cv2.2/one2one_cv2.2.1/act/Mul_output_0: 3d8ba0a8
/model.23/one2one_cv3.2/one2one_cv3.2.0/one2one_cv3.2.0.1/act/Mul_output_0: 3e48210a
/model.23/one2one_cv4.2/one2one_cv4.2.1/act/Mul_output_0: 3e13529e
/model.23/one2one_cv2.2/one2one_cv2.2.2/Conv_output_0: 3dc1db45
/model.23/one2one_cv3.2/one2one_cv3.2.1/one2one_cv3.2.1.0/conv/Conv_output_0: 3f055553
/model.23/one2one_cv4_kpts.2/Conv_output_0: 3d7040bf
/model.23/Reshape_2_output_0: 3dc1db45
/model.23/one2one_cv3.2/one2one_cv3.2.1/one2one_cv3.2.1.0/act/Sigmoid_output_0: 3c010204
/model.23/Reshape_8_output_0: 3d7040bf
/model.23/Concat_output_0: 3dc1db45
/model.23/one2one_cv3.2/one2one_cv3.2.1/one2one_cv3.2.1.0/act/Mul_output_0: 3f050eed
/model.23/Concat_2_output_0: 3d7040bf
/model.23/one2one_cv3.2/one2one_cv3.2.1/one2one_cv3.2.1.1/conv/Conv_output_0: 3f6dd778
/model.23/Reshape_9_output_0: 3d7040bf
/model.23/GatherElements_1_output_0: 40c58e73
/model.23/Unsqueeze_1_output_0: 3bed4fe2
/model.23/Cast_2_output_0: 0
output0: 40c58e73
/model.23/GatherElements_2_output_0: 40b13e91
/model.23/Sub_output_0: 3f1f37ca
/model.23/TopK_1_output_0: 3bed4fe2
/model.23/Flatten_output_0: 3bed4fe2
/model.23/GatherElements_output_0: 3bed4fe2
/model.23/Slice_output_0: 3dc06f4c
/model.23/Add_2_output_0: 3f20d531
/model.23/Reshape_10_output_0: 40d1171c
/model.23/Concat_1_output_0: 3fd2b275
/model.23/TopK_output_0: 0
/model.23/Slice_3_output_0: 3d7040bf
/model.23/ReduceMax_output_0: 3bed4fe2
/model.23/Constant_15_output_0_output: 3f204081
/model.23/Split_output_2: 40d1171c
/model.23/Split_output_1: 3bed4fe2
/model.23/Split_output_0: 40e4f3e7
/model.23/Transpose_output_0: 40e4f3e7
/model.23/Reshape_5_output_0: 3fd2b275
/model.23/Mul_2_output_0: 40e4f3e7
/model.23/Concat_4_output_0: 40d1171c
ONNXTRT_Broadcast_188_output: 3e810204
/model.23/Constant_17_output_0_output: 3e810204
/model.23/Mul_3_output_0: 40d1171c
/model.23/Sigmoid_output_0: 3bed4fe2
ONNXTRT_Broadcast_186_output: 3e810204
/model.23/Constant_24_output_0_output: 3e810204
/model.23/one2one_cv3.2/one2one_cv3.2.2/Conv_output_0: 3fd2b275
/model.23/Concat_5_output_0: 40e4f3e7
/model.23/Concat_3_output_0: 3f222fda
/model.23/Slice_1_output_0: 3dc1db45
/model.23/one2one_cv3.2/one2one_cv3.2.1/one2one_cv3.2.1.1/act/Sigmoid_output_0: 3c010204
ONNXTRT_Broadcast_184_output: 3f204081
/model.23/Slice_2_output_0: 3d6fb31e
/model.23/one2one_cv3.2/one2one_cv3.2.1/one2one_cv3.2.1.1/act/Mul_output_0: 3f6dd778
/model.23/Add_1_output_0: 3f222fda
/model.23/Constant_23_output_0_output: 3f204081
/model.23/Constant_16_output_0_output: 3f204081
/model.23/Sigmoid_1_output_0: 3c009c14
