TRT-101600-MinMaxCalibration
images: 3c010204
/model.0/conv/Conv_output_0: 3f289e8c
/model.0/act/Sigmoid_output_0: 3c010204
/model.0/act/Mul_output_0: 3f289e8c
/model.1/conv/Conv_output_0: 3f50a8da
/model.1/act/Sigmoid_output_0: 3c010204
/model.1/act/Mul_output_0: 3f35aee4
/model.2/cv1/conv/Conv_output_0: 3f27c173
/model.2/cv1/act/Sigmoid_output_0: 3c010204
/model.2/cv1/act/Mul_output_0: 3ea3334a
/model.2/Split_output_0: 3ea3334a
/model.2/Split_output_1: 3e9c0f53
/model.2/m.0/cv1/conv/Conv_output_0: 3d61f1ad
/model.2/m.0/cv1/act/Sigmoid_output_0: 3bdc2eea
/model.2/m.0/cv1/act/Mul_output_0: 3c41e718
/model.2/m.0/cv2/conv/Conv_output_0: 3e84c8c4
/model.2/m.0/cv2/act/Sigmoid_output_0: 3c010204
/model.2/m.0/cv2/act/Mul_output_0: 3e5277bd
/model.2/m.0/Add_output_0: 3eafa3ad
/model.2/Concat_output_0: 3eafa3ad
/model.2/cv2/conv/Conv_output_0: 3ef28293
/model.2/cv2/act/Sigmoid_output_0: 3c010201
/model.2/cv2/act/Mul_output_0: 3dec53a9
/model.3/conv/Conv_output_0: 3d88a998
/model.3/act/Sigmoid_output_0: 3c00e481
/model.3/act/Mul_output_0: 3d62301c
/model.4/cv1/conv/Conv_output_0: 3d8546ee
/model.4/cv1/act/Sigmoid_output_0: 3c003556
/model.4/cv1/act/Mul_output_0: 3d22be2d
/model.4/Split_output_0: 3d22be2d
/model.4/Split_output_1: 3cfae739
/model.4/m.0/cv1/conv/Conv_output_0: 3d207c96
/model.4/m.0/cv1/act/Sigmoid_output_0: 3bffa790
/model.4/m.0/cv1/act/Mul_output_0: 3d15b432
/model.4/m.0/cv2/conv/Conv_output_0: 3d7dcc0a
/model.4/m.0/cv2/act/Sigmoid_output_0: 3c00dc02
/model.4/m.0/cv2/act/Mul_output_0: 3d59f849
/model.4/m.0/Add_output_0: 3d792dd1
/model.4/Concat_output_0: 3d792dd1
/model.4/cv2/conv/Conv_output_0: 3d738543
/model.4/cv2/act/Sigmoid_output_0: 3bfef9ef
/model.4/cv2/act/Mul_output_0: 3d0d2ca0
/model.5/conv/Conv_output_0: 3d900983
/model.5/act/Sigmoid_output_0: 3c00247f
/model.5/act/Mul_output_0: 3d201c59
/model.6/cv1/conv/Conv_output_0: 3d829b11
/model.6/cv1/act/Sigmoid_output_0: 3c00acfb
/model.6/cv1/act/Mul_output_0: 3d3fb493
/model.6/Split_output_0: 3d32b3b3
/model.6/Split_output_1: 3d3fb493
/model.6/m.0/cv1/conv/Conv_output_0: 3d43221e
/model.6/m.0/cv2/conv/Conv_output_0: 3da90ee6
/model.6/m.0/cv1/act/Sigmoid_output_0: 3bfa7687
/model.6/m.0/cv2/act/Sigmoid_output_0: 3c00fbdb
/model.6/m.0/cv1/act/Mul_output_0: 3cdb3d3f
/model.6/m.0/cv2/act/Mul_output_0: 3d8a621a
/model.6/m.0/m/m.0/cv1/conv/Conv_output_0: 3d82eb98
/model.6/m.0/m/m.0/cv1/act/Sigmoid_output_0: 3c00d546
/model.6/m.0/m/m.0/cv1/act/Mul_output_0: 3d54aa20
/model.6/m.0/m/m.0/cv2/conv/Conv_output_0: 3d701529
/model.6/m.0/m/m.0/cv2/act/Sigmoid_output_0: 3c0028e7
/model.6/m.0/m/m.0/cv2/act/Mul_output_0: 3d20c70c
/model.6/m.0/m/m.0/Add_output_0: 3d2346df
/model.6/m.0/m/m.1/cv1/conv/Conv_output_0: 3d5f109c
/model.6/m.0/m/m.1/cv1/act/Sigmoid_output_0: 3c00b31c
/model.6/m.0/m/m.1/cv1/act/Mul_output_0: 3d422873
/model.6/m.0/m/m.1/cv2/conv/Conv_output_0: 3da387ec
/model.6/m.0/m/m.1/cv2/act/Sigmoid_output_0: 3c0100b5
/model.6/m.0/m/m.1/cv2/act/Mul_output_0: 3da38644
/model.6/m.0/m/m.1/Add_output_0: 3dd8792f
/model.6/m.0/Concat_output_0: 3dd8792f
/model.6/m.0/cv3/conv/Conv_output_0: 3d85f46e
/model.6/m.0/cv3/act/Sigmoid_output_0: 3c00ea20
/model.6/m.0/cv3/act/Mul_output_0: 3d690a37
/model.6/Concat_output_0: 3d690a37
/model.6/cv2/conv/Conv_output_0: 3d6ec19e
/model.6/cv2/act/Sigmoid_output_0: 3c008ff2
/model.6/cv2/act/Mul_output_0: 3d361122
/model.7/conv/Conv_output_0: 3d8a86b5
/model.7/act/Sigmoid_output_0: 3c00bbc9
/model.7/act/Mul_output_0: 3d45f675
/model.8/cv1/conv/Conv_output_0: 3dbf720a
/model.8/cv1/act/Sigmoid_output_0: 3c00ff7e
/model.8/cv1/act/Mul_output_0: 3d98dafb
/model.8/Split_output_0: 3d6854a8
/model.8/Split_output_1: 3d98dafb
/model.8/m.0/cv1/conv/Conv_output_0: 3d16b19b
/model.8/m.0/cv2/conv/Conv_output_0: 3da8b0fc
/model.8/m.0/cv1/act/Sigmoid_output_0: 3bfb6ea7
/model.8/m.0/cv2/act/Sigmoid_output_0: 3c00fe95
/model.8/m.0/cv1/act/Mul_output_0: 3ce4f71a
/model.8/m.0/cv2/act/Mul_output_0: 3d93efe0
/model.8/m.0/m/m.0/cv1/conv/Conv_output_0: 3dd6b7d0
/model.8/m.0/m/m.0/cv1/act/Sigmoid_output_0: 3c0101f6
/model.8/m.0/m/m.0/cv1/act/Mul_output_0: 3dd6b7b9
/model.8/m.0/m/m.0/cv2/conv/Conv_output_0: 3db571dd
/model.8/m.0/m/m.0/cv2/act/Sigmoid_output_0: 3c010195
/model.8/m.0/m/m.0/cv2/act/Mul_output_0: 3db57141
/model.8/m.0/m/m.0/Add_output_0: 3dc402e6
/model.8/m.0/m/m.1/cv1/conv/Conv_output_0: 3dc9e299
/model.8/m.0/m/m.1/cv1/act/Sigmoid_output_0: 3c0101e5
/model.8/m.0/m/m.1/cv1/act/Mul_output_0: 3dc9e269
/model.8/m.0/m/m.1/cv2/conv/Conv_output_0: 3e35bf6a
/model.8/m.0/m/m.1/cv2/act/Sigmoid_output_0: 3c010204
/model.8/m.0/m/m.1/cv2/act/Mul_output_0: 3e35bf6a
/model.8/m.0/m/m.1/Add_output_0: 3e449c67
/model.8/m.0/Concat_output_0: 3e449c67
/model.8/m.0/cv3/conv/Conv_output_0: 3dc58f17
/model.8/m.0/cv3/act/Sigmoid_output_0: 3c0101dc
/model.8/m.0/cv3/act/Mul_output_0: 3dc58eda
/model.8/Concat_output_0: 3dc58eda
/model.8/cv2/conv/Conv_output_0: 3da547c2
/model.8/cv2/act/Sigmoid_output_0: 3c00fc69
/model.8/cv2/act/Mul_output_0: 3d8bde16
/model.9/cv1/conv/Conv_output_0: 3d92523e
/model.9/m/MaxPool_output_0: 3d92523e
/model.9/m_1/MaxPool_output_0: 3d92523e
/model.9/m_2/MaxPool_output_0: 3d92523e
/model.9/Concat_output_0: 3d92523e
/model.9/cv2/conv/Conv_output_0: 3da47789
/model.9/cv2/act/Sigmoid_output_0: 3c00fe5b
/model.9/cv2/act/Mul_output_0: 3d92e127
/model.9/Add_output_0: 3d8eb2a5
/model.10/cv1/conv/Conv_output_0: 3d9abee4
/model.10/cv1/act/Sigmoid_output_0: 3c00ff9b
/model.10/cv1/act/Mul_output_0: 3d99926c
/model.10/Split_output_0: 3d99926c
/model.10/Split_output_1: 3d921044
/model.10/m/m.0/attn/qkv/conv/Conv_output_0: 3d889032
/model.10/m/m.0/attn/Reshape_output_0: 3d889032
/model.10/m/m.0/attn/Split_output_0: 3d2f51b5
/model.10/m/m.0/attn/Split_output_1: 3d6e2b7d
/model.10/m/m.0/attn/Split_output_2: 3d889032
/model.10/m/m.0/attn/Transpose_output_0: 3d2f51b5
/model.10/m/m.0/attn/Reshape_2_output_0: 3d889032
/model.10/m/m.0/attn/MatMul_output_0: 3f2827f5
/model.10/m/m.0/attn/pe/conv/Conv_output_0: 3d521d88
/model.10/m/m.0/attn/Constant_1_output_0_output: 3ab671d7
ONNXTRT_Broadcast_output: 3ab671d7
/model.10/m/m.0/attn/Mul_output_0: 3dedcf01
/model.10/m/m.0/attn/Softmax_output: 3bde58cf
/model.10/m/m.0/attn/Softmax_output_0: 3bde58cf
/model.10/m/m.0/attn/Transpose_1_output_0: 3bde58cf
/model.10/m/m.0/attn/MatMul_1_output_0: 3d51b28c
/model.10/m/m.0/attn/Reshape_1_output_0: 3d51b28c
/model.10/m/m.0/attn/Add_output_0: 3d418659
/model.10/m/m.0/attn/proj/conv/Conv_output_0: 3d2cec8b
/model.10/m/m.0/Add_output_0: 3d8a8b53
/model.10/m/m.0/ffn/ffn.0/conv/Conv_output_0: 3d95c14b
/model.10/m/m.0/ffn/ffn.0/act/Sigmoid_output_0: 3bff2453
/model.10/m/m.0/ffn/ffn.0/act/Mul_output_0: 3d0f1394
/model.10/m/m.0/ffn/ffn.1/conv/Conv_output_0: 3d4b746c
/model.10/m/m.0/Add_1_output_0: 3da53ad4
/model.10/Concat_output_0: 3da53ad4
/model.10/cv2/conv/Conv_output_0: 3df0f716
/model.10/cv2/act/Sigmoid_output_0: 3c010201
/model.10/cv2/act/Mul_output_0: 3df0f710
/model.11/Resize_output_0: 3df0f710
/model.12/Concat_output_0: 3df0f710
/model.13/cv1/conv/Conv_output_0: 3d4e4b02
/model.13/cv1/act/Sigmoid_output_0: 3c00cb08
/model.13/cv1/act/Mul_output_0: 3d4df315
/model.13/Split_output_0: 3d2bc13f
/model.13/Split_output_1: 3d4df315
/model.13/m.0/cv1/conv/Conv_output_0: 3d0c1b97
/model.13/m.0/cv2/conv/Conv_output_0: 3db1f8e0
/model.13/m.0/cv1/act/Sigmoid_output_0: 3bf73900
/model.13/m.0/cv2/act/Sigmoid_output_0: 3c01017b
/model.13/m.0/cv1/act/Mul_output_0: 3cc18961
/model.13/m.0/cv2/act/Mul_output_0: 3db1f823
/model.13/m.0/m/m.0/cv1/conv/Conv_output_0: 3d4fadea
/model.13/m.0/m/m.0/cv1/act/Sigmoid_output_0: 3c00b808
/model.13/m.0/m/m.0/cv1/act/Mul_output_0: 3d44439c
/model.13/m.0/m/m.0/cv2/conv/Conv_output_0: 3d62fb93
/model.13/m.0/m/m.0/cv2/act/Sigmoid_output_0: 3c00d5ba
/model.13/m.0/m/m.0/cv2/act/Mul_output_0: 3d54ff46
/model.13/m.0/m/m.0/Add_output_0: 3d779cc8
/model.13/m.0/m/m.1/cv1/conv/Conv_output_0: 3da84bd2
/model.13/m.0/m/m.1/cv1/act/Sigmoid_output_0: 3c00e9d7
/model.13/m.0/m/m.1/cv1/act/Mul_output_0: 3d68a763
/model.13/m.0/m/m.1/cv2/conv/Conv_output_0: 3de3f99b
/model.13/m.0/m/m.1/cv2/act/Sigmoid_output_0: 3c0101fe
/model.13/m.0/m/m.1/cv2/act/Mul_output_0: 3de3f990
/model.13/m.0/m/m.1/Add_output_0: 3dea66c5
/model.13/m.0/Concat_output_0: 3dea66c5
/model.13/m.0/cv3/conv/Conv_output_0: 3d9440d4
/model.13/m.0/cv3/act/Sigmoid_output_0: 3c00f986
/model.13/m.0/cv3/act/Mul_output_0: 3d85519f
/model.13/Concat_output_0: 3d85519f
/model.13/cv2/conv/Conv_output_0: 3d90d6f2
/model.13/cv2/act/Sigmoid_output_0: 3c00bf4c
/model.13/cv2/act/Mul_output_0: 3d47a32c
/model.14/Resize_output_0: 3d47a32c
/model.15/Concat_output_0: 3d47a32c
/model.16/cv1/conv/Conv_output_0: 3d60b846
/model.16/cv1/act/Sigmoid_output_0: 3c00abaf
/model.16/cv1/act/Mul_output_0: 3d3f35b7
/model.16/Split_output_0: 3d3a6321
/model.16/Split_output_1: 3d3f35b7
/model.16/m.0/cv1/conv/Conv_output_0: 3ce04722
/model.16/m.0/cv2/conv/Conv_output_0: 3e0e2f75
/model.16/m.0/cv1/act/Sigmoid_output_0: 3be43eff
/model.16/m.0/cv2/act/Sigmoid_output_0: 3c010204
/model.16/m.0/cv1/act/Mul_output_0: 3c6876aa
/model.16/m.0/cv2/act/Mul_output_0: 3e0e2f75
/model.16/m.0/m/m.0/cv1/conv/Conv_output_0: 3d557136
/model.16/m.0/m/m.0/cv1/act/Sigmoid_output_0: 3c005a34
/model.16/m.0/m/m.0/cv1/act/Mul_output_0: 3d29555f
/model.16/m.0/m/m.0/cv2/conv/Conv_output_0: 3d7a4ff4
/model.16/m.0/m/m.0/cv2/act/Sigmoid_output_0: 3c00f3f4
/model.16/m.0/m/m.0/cv2/act/Mul_output_0: 3d7a34aa
/model.16/m.0/m/m.0/Add_output_0: 3d85a641
/model.16/m.0/m/m.1/cv1/conv/Conv_output_0: 3d91e894
/model.16/m.0/m/m.1/cv1/act/Sigmoid_output_0: 3c00fe22
/model.16/m.0/m/m.1/cv1/act/Mul_output_0: 3d91e430
/model.16/m.0/m/m.1/cv2/conv/Conv_output_0: 3e3a2e38
/model.16/m.0/m/m.1/cv2/act/Sigmoid_output_0: 3c010204
/model.16/m.0/m/m.1/cv2/act/Mul_output_0: 3e3a2e38
/model.16/m.0/m/m.1/Add_output_0: 3e54c6f3
/model.16/m.0/Concat_output_0: 3e54c6f3
/model.16/m.0/cv3/conv/Conv_output_0: 3e08197d
/model.16/m.0/cv3/act/Sigmoid_output_0: 3c0101fd
/model.16/m.0/cv3/act/Mul_output_0: 3de2c3cf
/model.16/Concat_output_0: 3de2c3cf
/model.16/cv2/conv/Conv_output_0: 3e97670c
/model.16/cv2/act/Sigmoid_output_0: 3c00d7a6
/model.16/cv2/act/Mul_output_0: 3d567045
/model.17/conv/Conv_output_0: 3d8a453b
/model.23/one2one_cv2.0/one2one_cv2.0.0/conv/Conv_output_0: 3e6e00a7
/model.23/one2one_cv3.0/one2one_cv3.0.0/one2one_cv3.0.0.0/conv/Conv_output_0: 3da5b9ee
/model.23/one2one_cv4.0/one2one_cv4.0.0/conv/Conv_output_0: 3db361d1
/model.17/act/Sigmoid_output_0: 3c00fbcd
/model.23/one2one_cv2.0/one2one_cv2.0.0/act/Sigmoid_output_0: 3c010204
/model.23/one2one_cv3.0/one2one_cv3.0.0/one2one_cv3.0.0.0/act/Sigmoid_output_0: 3c0100df
/model.23/one2one_cv4.0/one2one_cv4.0.0/act/Sigmoid_output_0: 3c01011e
/model.17/act/Mul_output_0: 3d8a3e92
/model.23/one2one_cv2.0/one2one_cv2.0.0/act/Mul_output_0: 3e448a74
/model.23/one2one_cv3.0/one2one_cv3.0.0/one2one_cv3.0.0.0/act/Mul_output_0: 3da5b876
/model.23/one2one_cv4.0/one2one_cv4.0.0/act/Mul_output_0: 3da97e81
/model.18/Concat_output_0: 3d8a3e92
/model.23/one2one_cv2.0/one2one_cv2.0.1/conv/Conv_output_0: 3dc5f467
/model.23/one2one_cv3.0/one2one_cv3.0.0/one2one_cv3.0.0.1/conv/Conv_output_0: 3d8b8fda
/model.23/one2one_cv4.0/one2one_cv4.0.1/conv/Conv_output_0: 3dd89525
/model.19/cv1/conv/Conv_output_0: 3db2e05f
/model.23/one2one_cv2.0/one2one_cv2.0.1/act/Sigmoid_output_0: 3c0101dd
/model.23/one2one_cv3.0/one2one_cv3.0.0/one2one_cv3.0.0.1/act/Sigmoid_output_0: 3c00f96b
/model.23/one2one_cv4.0/one2one_cv4.0.1/act/Sigmoid_output_0: 3c0101f8
/model.19/cv1/act/Sigmoid_output_0: 3c00ff5e
/model.23/one2one_cv2.0/one2one_cv2.0.1/act/Mul_output_0: 3dc5f42a
/model.23/one2one_cv3.0/one2one_cv3.0.0/one2one_cv3.0.0.1/act/Mul_output_0: 3d851f81
/model.23/one2one_cv4.0/one2one_cv4.0.1/act/Mul_output_0: 3dd89511
/model.19/cv1/act/Mul_output_0: 3d98164e
/model.23/one2one_cv2.0/one2one_cv2.0.2/Conv_output_0: 3e54230c
/model.23/one2one_cv3.0/one2one_cv3.0.1/one2one_cv3.0.1.0/conv/Conv_output_0: 3daa2fe2
/model.23/one2one_cv4_kpts.0/Conv_output_0: 3e0807d0
/model.19/Split_output_0: 3d98164e
/model.19/Split_output_1: 3d8996c5
/model.23/Reshape_output_0: 3e54230c
/model.23/one2one_cv3.0/one2one_cv3.0.1/one2one_cv3.0.1.0/act/Sigmoid_output_0: 3c010128
/model.23/Reshape_6_output_0: 3e0807d0
/model.19/m.0/cv1/conv/Conv_output_0: 3d010549
/model.19/m.0/cv2/conv/Conv_output_0: 3dd73c0f
/model.23/one2one_cv3.0/one2one_cv3.0.1/one2one_cv3.0.1.0/act/Mul_output_0: 3daa2ebf
/model.19/m.0/cv1/act/Sigmoid_output_0: 3bf9e022
/model.19/m.0/cv2/act/Sigmoid_output_0: 3c0101f7
/model.23/one2one_cv3.0/one2one_cv3.0.1/one2one_cv3.0.1.1/conv/Conv_output_0: 3d9b5ac9
/model.19/m.0/cv1/act/Mul_output_0: 3cd5e5f9
/model.19/m.0/cv2/act/Mul_output_0: 3dd73bf9
/model.23/one2one_cv3.0/one2one_cv3.0.1/one2one_cv3.0.1.1/act/Sigmoid_output_0: 3c00fe9e
/model.19/m.0/m/m.0/cv1/conv/Conv_output_0: 3d82b570
/model.23/one2one_cv3.0/one2one_cv3.0.1/one2one_cv3.0.1.1/act/Mul_output_0: 3d941be5
/model.19/m.0/m/m.0/cv1/act/Sigmoid_output_0: 3c00a299
/model.23/one2one_cv3.0/one2one_cv3.0.2/Conv_output_0: 3e71fef2
/model.19/m.0/m/m.0/cv1/act/Mul_output_0: 3d3bef0d
/model.23/Reshape_3_output_0: 3e71fef2
/model.19/m.0/m/m.0/cv2/conv/Conv_output_0: 3d892122
/model.19/m.0/m/m.0/cv2/act/Sigmoid_output_0: 3c00ad19
/model.19/m.0/m/m.0/cv2/act/Mul_output_0: 3d3fc05f
/model.19/m.0/m/m.0/Add_output_0: 3d712d81
/model.19/m.0/m/m.1/cv1/conv/Conv_output_0: 3d910d21
/model.19/m.0/m/m.1/cv1/act/Sigmoid_output_0: 3c00fde3
/model.19/m.0/m/m.1/cv1/act/Mul_output_0: 3d91087d
/model.19/m.0/m/m.1/cv2/conv/Conv_output_0: 3e7eace7
/model.19/m.0/m/m.1/cv2/act/Sigmoid_output_0: 3c010204
/model.19/m.0/m/m.1/cv2/act/Mul_output_0: 3e7eace7
/model.19/m.0/m/m.1/Add_output_0: 3e8c58da
/model.19/m.0/Concat_output_0: 3e8c58da
/model.19/m.0/cv3/conv/Conv_output_0: 3e8d137b
/model.19/m.0/cv3/act/Sigmoid_output_0: 3c010204
/model.19/m.0/cv3/act/Mul_output_0: 3e306115
/model.19/Concat_output_0: 3e306115
/model.19/cv2/conv/Conv_output_0: 3ebc7846
/model.19/cv2/act/Sigmoid_output_0: 3c00fd02
/model.19/cv2/act/Mul_output_0: 3d8dabdb
/model.20/conv/Conv_output_0: 3d9b68b2
/model.23/one2one_cv2.1/one2one_cv2.1.0/conv/Conv_output_0: 3e150ef4
/model.23/one2one_cv3.1/one2one_cv3.1.0/one2one_cv3.1.0.0/conv/Conv_output_0: 3db3b4fd
/model.23/one2one_cv4.1/one2one_cv4.1.0/conv/Conv_output_0: 3d8e3e7b
/model.20/act/Sigmoid_output_0: 3c00f920
/model.23/one2one_cv2.1/one2one_cv2.1.0/act/Sigmoid_output_0: 3c010204
/model.23/one2one_cv3.1/one2one_cv3.1.0/one2one_cv3.1.0.0/act/Sigmoid_output_0: 3c010189
/model.23/one2one_cv4.1/one2one_cv4.1.0/act/Sigmoid_output_0: 3c00fd2c
/model.20/act/Mul_output_0: 3d8493e2
/model.23/one2one_cv2.1/one2one_cv2.1.0/act/Mul_output_0: 3e150ef4
/model.23/one2one_cv3.1/one2one_cv3.1.0/one2one_cv3.1.0.0/act/Mul_output_0: 3db3b452
/model.23/one2one_cv4.1/one2one_cv4.1.0/act/Mul_output_0: 3d8e3923
/model.21/Concat_output_0: 3df0f710
/model.23/one2one_cv2.1/one2one_cv2.1.1/conv/Conv_output_0: 3dac4a57
/model.23/one2one_cv3.1/one2one_cv3.1.0/one2one_cv3.1.0.1/conv/Conv_output_0: 3d81fd41
/model.23/one2one_cv4.1/one2one_cv4.1.1/conv/Conv_output_0: 3d74f5fc
/model.22/cv1/conv/Conv_output_0: 3dc03e8d
/model.23/one2one_cv2.1/one2one_cv2.1.1/act/Sigmoid_output_0: 3c010144
/model.23/one2one_cv3.1/one2one_cv3.1.0/one2one_cv3.1.0.1/act/Sigmoid_output_0: 3c00ce9a
/model.23/one2one_cv4.1/one2one_cv4.1.1/act/Sigmoid_output_0: 3c00e306
/model.22/cv1/act/Sigmoid_output_0: 3c0101c2
/model.23/one2one_cv2.1/one2one_cv2.1.1/act/Mul_output_0: 3dac4956
/model.23/one2one_cv3.1/one2one_cv3.1.0/one2one_cv3.1.0.1/act/Mul_output_0: 3d5022c4
/model.23/one2one_cv4.1/one2one_cv4.1.1/act/Mul_output_0: 3d60990f
/model.22/cv1/act/Mul_output_0: 3dbd6372
/model.23/one2one_cv2.1/one2one_cv2.1.2/Conv_output_0: 3dfadbca
/model.23/one2one_cv3.1/one2one_cv3.1.1/one2one_cv3.1.1.0/conv/Conv_output_0: 3da3f031
/model.23/one2one_cv4_kpts.1/Conv_output_0: 3da8dff9
/model.22/Split_output_0: 3dbd6372
/model.22/Split_output_1: 3d96f5a4
/model.23/Reshape_1_output_0: 3dfadbca
/model.23/one2one_cv3.1/one2one_cv3.1.1/one2one_cv3.1.1.0/act/Sigmoid_output_0: 3c00fef5
/model.23/Reshape_7_output_0: 3da8dff9
/model.22/m.0/m.0.0/cv1/conv/Conv_output_0: 3e034dbd
/model.23/one2one_cv3.1/one2one_cv3.1.1/one2one_cv3.1.1.0/act/Mul_output_0: 3d95cc8b
/model.22/m.0/m.0.0/cv1/act/Sigmoid_output_0: 3c010204
/model.23/one2one_cv3.1/one2one_cv3.1.1/one2one_cv3.1.1.1/conv/Conv_output_0: 3e0e55e2
/model.22/m.0/m.0.0/cv1/act/Mul_output_0: 3e034dbd
/model.23/one2one_cv3.1/one2one_cv3.1.1/one2one_cv3.1.1.1/act/Sigmoid_output_0: 3c010204
/model.22/m.0/m.0.0/cv2/conv/Conv_output_0: 3e469020
/model.23/one2one_cv3.1/one2one_cv3.1.1/one2one_cv3.1.1.1/act/Mul_output_0: 3e0e55e2
/model.22/m.0/m.0.0/cv2/act/Sigmoid_output_0: 3c010204
/model.23/one2one_cv3.1/one2one_cv3.1.2/Conv_output_0: 3eda16cf
/model.22/m.0/m.0.0/cv2/act/Mul_output_0: 3e1628c6
/model.23/Reshape_4_output_0: 3eda16cf
/model.22/m.0/m.0.0/Add_output_0: 3e2b43d2
/model.22/m.0/m.0.1/attn/qkv/conv/Conv_output_0: 3e2f748e
/model.22/m.0/m.0.1/attn/Reshape_output_0: 3e2f748e
/model.22/m.0/m.0.1/attn/Split_output_0: 3d8f83de
/model.22/m.0/m.0.1/attn/Split_output_1: 3db9d11e
/model.22/m.0/m.0.1/attn/Split_output_2: 3e2f748e
/model.22/m.0/m.0.1/attn/Transpose_output_0: 3d8f83de
/model.22/m.0/m.0.1/attn/Reshape_2_output_0: 3e2f748e
/model.22/m.0/m.0.1/attn/MatMul_output_0: 3fd639e0
/model.22/m.0/m.0.1/attn/pe/conv/Conv_output_0: 3e2d6857
ONNXTRT_Broadcast_49_output: 3ab671d7
/model.22/m.0/m.0.1/attn/Mul_output_0: 3e977b0f
/model.22/m.0/m.0.1/attn/Softmax_output: 3c00cb93
/model.22/m.0/m.0.1/attn/Softmax_output_0: 3c00cb93
/model.22/m.0/m.0.1/attn/Transpose_1_output_0: 3c00cb93
/model.22/m.0/m.0.1/attn/MatMul_1_output_0: 3e2abcb1
/model.22/m.0/m.0.1/attn/Reshape_1_output_0: 3e2abcb1
/model.22/m.0/m.0.1/attn/Add_output_0: 3e75b4e8
/model.22/m.0/m.0.1/attn/proj/conv/Conv_output_0: 3d91a434
/model.22/m.0/m.0.1/Add_output_0: 3e46de9a
/model.22/m.0/m.0.1/ffn/ffn.0/conv/Conv_output_0: 3edc4d3e
/model.22/m.0/m.0.1/ffn/ffn.0/act/Sigmoid_output_0: 3c010204
/model.22/m.0/m.0.1/ffn/ffn.0/act/Mul_output_0: 3edc4d3e
/model.22/m.0/m.0.1/ffn/ffn.1/conv/Conv_output_0: 3e34af7a
/model.22/m.0/m.0.1/Add_1_output_0: 3ebdaa77
/model.22/Concat_output_0: 3ebdaa77
/model.22/cv2/conv/Conv_output_0: 3f5c9dc4
/model.22/cv2/act/Sigmoid_output_0: 3c010204
/model.22/cv2/act/Mul_output_0: 3f0fcd6b
/model.23/one2one_cv2.2/one2one_cv2.2.0/conv/Conv_output_0: 3de385c1
/model.23/one2one_cv3.2/one2one_cv3.2.0/one2one_cv3.2.0.0/conv/Conv_output_0: 3e6f3f9b
/model.23/one2one_cv4.2/one2one_cv4.2.0/conv/Conv_output_0: 3e114bb8
/model.23/one2one_cv2.2/one2one_cv2.2.0/act/Sigmoid_output_0: 3c0101fe
/model.23/one2one_cv3.2/one2one_cv3.2.0/one2one_cv3.2.0.0/act/Sigmoid_output_0: 3c010204
/model.23/one2one_cv4.2/one2one_cv4.2.0/act/Sigmoid_output_0: 3c010204
/model.23/one2one_cv2.2/one2one_cv2.2.0/act/Mul_output_0: 3de385b5
/model.23/one2one_cv3.2/one2one_cv3.2.0/one2one_cv3.2.0.0/act/Mul_output_0: 3e6f3f9b
/model.23/one2one_cv4.2/one2one_cv4.2.0/act/Mul_output_0: 3e114bb8
/model.23/one2one_cv2.2/one2one_cv2.2.1/conv/Conv_output_0: 3e295d65
/model.23/one2one_cv3.2/one2one_cv3.2.0/one2one_cv3.2.0.1/conv/Conv_output_0: 3deae24a
/model.23/one2one_cv4.2/one2one_cv4.2.1/conv/Conv_output_0: 3df19213
/model.23/one2one_cv2.2/one2one_cv2.2.1/act/Sigmoid_output_0: 3c010145
/model.23/one2one_cv3.2/one2one_cv3.2.0/one2one_cv3.2.0.1/act/Sigmoid_output_0: 3c010154
/model.23/one2one_cv4.2/one2one_cv4.2.1/act/Sigmoid_output_0: 3c010103
/model.23/one2one_cv2.2/one2one_cv2.2.1/act/Mul_output_0: 3dac63f9
/model.23/one2one_cv3.2/one2one_cv3.2.0/one2one_cv3.2.0.1/act/Mul_output_0: 3dadb562
/model.23/one2one_cv4.2/one2one_cv4.2.1/act/Mul_output_0: 3da7c58b
/model.23/one2one_cv2.2/one2one_cv2.2.2/Conv_output_0: 3dfb81d3
/model.23/one2one_cv3.2/one2one_cv3.2.1/one2one_cv3.2.1.0/conv/Conv_output_0: 3e6e3341
/model.23/one2one_cv4_kpts.2/Conv_output_0: 3e307b4a
/model.23/Reshape_2_output_0: 3dfb81d3
/model.23/one2one_cv3.2/one2one_cv3.2.1/one2one_cv3.2.1.0/act/Sigmoid_output_0: 3c010204
/model.23/Reshape_8_output_0: 3e307b4a
/model.23/Concat_output_0: 3e54230c
/model.23/one2one_cv3.2/one2one_cv3.2.1/one2one_cv3.2.1.0/act/Mul_output_0: 3e516b83
/model.23/Concat_2_output_0: 3e307b4a
/model.23/one2one_cv3.2/one2one_cv3.2.1/one2one_cv3.2.1.1/conv/Conv_output_0: 3e5fbed4
/model.23/Reshape_9_output_0: 3e307b4a
/model.23/Flatten_output_0: 3bf6db00
/model.23/GatherElements_2_output_0: 4103e23b
/model.23/Unsqueeze_1_output_0: 3bf6db00
/model.23/Cast_2_output_0: 0
/model.23/GatherElements_output_0: 3bf6db00
/model.23/TopK_1_output_0: 3bf6db00
/model.23/Constant_16_output_0_output: 3f204081
/model.23/GatherElements_1_output_0: 40c946c4
/model.23/Slice_output_0: 3e54230c
/model.23/Split_output_2: 410ca721
ONNXTRT_Broadcast_188_output: 3e810204
/model.23/Constant_17_output_0_output: 3e810204
/model.23/Split_output_0: 40ca548d
/model.23/Transpose_output_0: 410ca721
/model.23/Split_output_1: 3bf6db00
/model.23/Concat_5_output_0: 410ca721
/model.23/TopK_output_0: 0
/model.23/Sigmoid_output_0: 3bf6db00
/model.23/Reshape_10_output_0: 410ca721
/model.23/ReduceMax_output_0: 3bf6db00
/model.23/Concat_1_output_0: 3f33bda3
/model.23/Concat_4_output_0: 410ca721
ONNXTRT_Broadcast_186_output: 3e810204
/model.23/Constant_24_output_0_output: 3e810204
/model.23/Mul_3_output_0: 410ca721
/model.23/one2one_cv3.2/one2one_cv3.2.2/Conv_output_0: 3f33bda3
/model.23/Concat_3_output_0: 3f27968b
/model.23/Sigmoid_1_output_0: 3c010204
/model.23/Mul_2_output_0: 40ca548d
/model.23/Add_2_output_0: 3f2429d7
ONNXTRT_Broadcast_184_output: 3f204081
/model.23/Constant_23_output_0_output: 3f204081
/model.23/Reshape_5_output_0: 3f33bda3
/model.23/one2one_cv3.2/one2one_cv3.2.1/one2one_cv3.2.1.1/act/Mul_output_0: 3e5fbed4
/model.23/Slice_1_output_0: 3dfadbca
/model.23/one2one_cv3.2/one2one_cv3.2.1/one2one_cv3.2.1.1/act/Sigmoid_output_0: 3c010204
/model.23/Sub_output_0: 3f2096c4
/model.23/Slice_3_output_0: 3e307b4a
/model.23/Slice_2_output_0: 3e0c340e
/model.23/Constant_15_output_0_output: 3f204081
output0: 4103e23b
/model.23/Add_1_output_0: 3f27968b
